#ifndef SINE_MODEL_H
#define SINE_MODEL_H


unsigned int sine_model_len = 3168;
unsigned char sine_model[] = {
 0x1c, 0x00, 0x00, 0x00, 0x54, 0x46, 0x4c, 0x33, 0x14, 0x00, 0x20, 0x00,
  0x1c, 0x00, 0x18, 0x00, 0x14, 0x00, 0x10, 0x00, 0x0c, 0x00, 0x00, 0x00,
  0x08, 0x00, 0x04, 0x00, 0x14, 0x00, 0x00, 0x00, 0x1c, 0x00, 0x00, 0x00,
  0x90, 0x00, 0x00, 0x00, 0xe8, 0x00, 0x00, 0x00, 0x04, 0x07, 0x00, 0x00,
  0x14, 0x07, 0x00, 0x00, 0x0c, 0x0c, 0x00, 0x00, 0x03, 0x00, 0x00, 0x00,
  0x01, 0x00, 0x00, 0x00, 0x10, 0x00, 0x00, 0x00, 0x00, 0x00, 0x0a, 0x00,
  0x10, 0x00, 0x0c, 0x00, 0x08, 0x00, 0x04, 0x00, 0x0a, 0x00, 0x00, 0x00,
  0x0c, 0x00, 0x00, 0x00, 0x1c, 0x00, 0x00, 0x00, 0x38, 0x00, 0x00, 0x00,
  0x0f, 0x00, 0x00, 0x00, 0x73, 0x65, 0x72, 0x76, 0x69, 0x6e, 0x67, 0x5f,
  0x64, 0x65, 0x66, 0x61, 0x75, 0x6c, 0x74, 0x00, 0x01, 0x00, 0x00, 0x00,
  0x04, 0x00, 0x00, 0x00, 0x98, 0xff, 0xff, 0xff, 0x09, 0x00, 0x00, 0x00,
  0x04, 0x00, 0x00, 0x00, 0x07, 0x00, 0x00, 0x00, 0x64, 0x65, 0x6e, 0x73,
  0x65, 0x5f, 0x32, 0x00, 0x01, 0x00, 0x00, 0x00, 0x04, 0x00, 0x00, 0x00,
  0xc6, 0xf9, 0xff, 0xff, 0x04, 0x00, 0x00, 0x00, 0x0b, 0x00, 0x00, 0x00,
  0x64, 0x65, 0x6e, 0x73, 0x65, 0x5f, 0x69, 0x6e, 0x70, 0x75, 0x74, 0x00,
  0x02, 0x00, 0x00, 0x00, 0x34, 0x00, 0x00, 0x00, 0x04, 0x00, 0x00, 0x00,
  0xdc, 0xff, 0xff, 0xff, 0x0c, 0x00, 0x00, 0x00, 0x04, 0x00, 0x00, 0x00,
  0x13, 0x00, 0x00, 0x00, 0x43, 0x4f, 0x4e, 0x56, 0x45, 0x52, 0x53, 0x49,
  0x4f, 0x4e, 0x5f, 0x4d, 0x45, 0x54, 0x41, 0x44, 0x41, 0x54, 0x41, 0x00,
  0x08, 0x00, 0x0c, 0x00, 0x08, 0x00, 0x04, 0x00, 0x08, 0x00, 0x00, 0x00,
  0x0b, 0x00, 0x00, 0x00, 0x04, 0x00, 0x00, 0x00, 0x13, 0x00, 0x00, 0x00,
  0x6d, 0x69, 0x6e, 0x5f, 0x72, 0x75, 0x6e, 0x74, 0x69, 0x6d, 0x65, 0x5f,
  0x76, 0x65, 0x72, 0x73, 0x69, 0x6f, 0x6e, 0x00, 0x0d, 0x00, 0x00, 0x00,
  0x18, 0x06, 0x00, 0x00, 0x10, 0x06, 0x00, 0x00, 0xc0, 0x05, 0x00, 0x00,
  0xa4, 0x05, 0x00, 0x00, 0x54, 0x05, 0x00, 0x00, 0x04, 0x05, 0x00, 0x00,
  0xf4, 0x00, 0x00, 0x00, 0xa4, 0x00, 0x00, 0x00, 0x9c, 0x00, 0x00, 0x00,
  0x94, 0x00, 0x00, 0x00, 0x8c, 0x00, 0x00, 0x00, 0x6c, 0x00, 0x00, 0x00,
  0x04, 0x00, 0x00, 0x00, 0x72, 0xfa, 0xff, 0xff, 0x04, 0x00, 0x00, 0x00,
  0x58, 0x00, 0x00, 0x00, 0x0c, 0x00, 0x00, 0x00, 0x08, 0x00, 0x0e, 0x00,
  0x08, 0x00, 0x04, 0x00, 0x08, 0x00, 0x00, 0x00, 0x10, 0x00, 0x00, 0x00,
  0x28, 0x00, 0x00, 0x00, 0x00, 0x00, 0x06, 0x00, 0x08, 0x00, 0x04, 0x00,
  0x06, 0x00, 0x00, 0x00, 0x04, 0x00, 0x00, 0x00, 0x01, 0x00, 0x00, 0x00,
  0xea, 0x03, 0x00, 0x00, 0x00, 0x00, 0x0a, 0x00, 0x10, 0x00, 0x0c, 0x00,
  0x08, 0x00, 0x04, 0x00, 0x0a, 0x00, 0x00, 0x00, 0x02, 0x00, 0x00, 0x00,
  0x02, 0x00, 0x00, 0x00, 0x04, 0x00, 0x00, 0x00, 0x06, 0x00, 0x00, 0x00,
  0x32, 0x2e, 0x31, 0x31, 0x2e, 0x30, 0x00, 0x00, 0xd6, 0xfa, 0xff, 0xff,
  0x04, 0x00, 0x00, 0x00, 0x10, 0x00, 0x00, 0x00, 0x31, 0x2e, 0x35, 0x2e,
  0x30, 0x00, 0x00, 0x00, 0x00, 0x00, 0x00, 0x00, 0x00, 0x00, 0x00, 0x00,
  0xc0, 0xf5, 0xff, 0xff, 0xc4, 0xf5, 0xff, 0xff, 0xc8, 0xf5, 0xff, 0xff,
  0xfe, 0xfa, 0xff, 0xff, 0x04, 0x00, 0x00, 0x00, 0x40, 0x00, 0x00, 0x00,
  0x40, 0xcc, 0xce, 0xbe, 0xe4, 0x9c, 0x88, 0xbf, 0x54, 0x20, 0x11, 0x3d,
  0xe0, 0x1e, 0x80, 0xbd, 0x4e, 0x3e, 0xa5, 0x3f, 0x8c, 0xf2, 0x03, 0x3f,
  0x0f, 0x67, 0xc3, 0xbe, 0x46, 0xe3, 0x99, 0x3e, 0xc4, 0xd1, 0x02, 0x3f,
  0x80, 0x39, 0x65, 0x3e, 0x88, 0x05, 0xa0, 0xbd, 0x12, 0x54, 0x30, 0xbe,
  0xe6, 0xac, 0xd1, 0x3f, 0xa8, 0xdc, 0xd6, 0x3e, 0xa9, 0xb6, 0xa9, 0x3f,
  0x9b, 0xee, 0xd3, 0xbe, 0x4a, 0xfb, 0xff, 0xff, 0x04, 0x00, 0x00, 0x00,
  0x00, 0x04, 0x00, 0x00, 0x76, 0xc9, 0xc5, 0xbe, 0x62, 0x76, 0xb4, 0xbe,
  0x38, 0x0c, 0x87, 0x3d, 0x10, 0xca, 0x7a, 0xbe, 0x63, 0x9a, 0x8a, 0xbe,
  0x25, 0x29, 0x70, 0xbe, 0x24, 0x92, 0xb6, 0x3d, 0x4f, 0xb5, 0xa0, 0xbe,
  0x1e, 0xa3, 0xaf, 0xbe, 0x94, 0xe9, 0xff, 0xbd, 0xfe, 0x2e, 0x8b, 0xbe,
  0x5a, 0x33, 0x87, 0xbe, 0x63, 0x00, 0xce, 0xbe, 0xf2, 0xc1, 0xba, 0xbe,
  0x42, 0xdc, 0x41, 0x3e, 0x4a, 0x3a, 0x61, 0x3e, 0x44, 0x13, 0xd8, 0x3e,
  0x4c, 0xc4, 0xf4, 0x3d, 0x85, 0xc1, 0x9f, 0x3e, 0xc3, 0x38, 0x20, 0x3f,
  0xa0, 0xf4, 0x5a, 0x3c, 0xa2, 0x60, 0xb2, 0xbe, 0xd6, 0xe4, 0x2c, 0xbf,
  0xa1, 0xcb, 0xc3, 0x3e, 0xe8, 0x6a, 0xf2, 0x3e, 0x32, 0x64, 0xae, 0xbe,
  0xf9, 0x36, 0x49, 0xbd, 0x8c, 0x29, 0x5e, 0xbe, 0x89, 0xb9, 0x0c, 0x3d,
  0xc6, 0x7d, 0xc7, 0xbe, 0xdb, 0xd0, 0xd3, 0x3e, 0xa0, 0x54, 0xc7, 0xbc,
  0x77, 0xee, 0x0d, 0xbe, 0xae, 0x1b, 0x0a, 0xbe, 0x00, 0x09, 0x6e, 0xbc,
  0x2a, 0x52, 0x5f, 0x3e, 0x3b, 0x21, 0x6e, 0xbe, 0x08, 0x11, 0x96, 0xbe,
  0xf3, 0xbd, 0xa3, 0x3e, 0xe2, 0x2e, 0x0e, 0xbe, 0x28, 0x18, 0x2d, 0xbe,
  0xcf, 0x5d, 0x5d, 0xbe, 0xb0, 0x66, 0xae, 0xbe, 0xbc, 0x6b, 0x55, 0x3b,
  0x50, 0x00, 0x0b, 0xbe, 0xd8, 0x9d, 0x94, 0x3e, 0xbd, 0xd5, 0xb4, 0x3e,
  0xc8, 0x34, 0x59, 0x3d, 0x80, 0x2c, 0xd3, 0xbd, 0x50, 0x51, 0x74, 0xbd,
  0x42, 0x72, 0x37, 0x3e, 0xea, 0x2b, 0x0a, 0xbe, 0x37, 0x36, 0x46, 0xbe,
  0xe8, 0x64, 0xb1, 0xbd, 0xc4, 0xa5, 0xc0, 0x3d, 0x5a, 0x7a, 0x12, 0x3e,
  0xa0, 0x33, 0xf6, 0x3c, 0x3a, 0x3f, 0x80, 0xbe, 0x70, 0x44, 0x6d, 0xbd,
  0x4c, 0x1f, 0xae, 0x3d, 0xd9, 0xbf, 0xaa, 0xbe, 0xba, 0x45, 0x6a, 0x3e,
  0x01, 0x9f, 0x95, 0x3e, 0x5c, 0x3f, 0x43, 0xbe, 0xc8, 0x55, 0x02, 0xbf,
  0x6a, 0x4e, 0x49, 0x3e, 0x1c, 0x4d, 0xaf, 0xbd, 0xda, 0x1f, 0xb6, 0x3e,
  0xf0, 0x06, 0x88, 0x3d, 0x42, 0xad, 0x0d, 0xbf, 0xe4, 0xb0, 0x92, 0x3e,
  0x20, 0x03, 0x07, 0xbe, 0x42, 0x0d, 0x29, 0xbe, 0xab, 0x01, 0xd5, 0xbf,
  0x44, 0x56, 0xb5, 0xbe, 0x14, 0x2a, 0xe2, 0x3e, 0x6d, 0x51, 0x83, 0x3e,
  0x09, 0x5d, 0x0f, 0xbe, 0x8a, 0xca, 0x81, 0xbe, 0xa0, 0xb1, 0x54, 0x3d,
  0x7a, 0x43, 0xd6, 0x3e, 0x2c, 0x75, 0x89, 0xbe, 0xe0, 0x36, 0x2a, 0x3c,
  0xc1, 0x6a, 0x8c, 0x3c, 0xd5, 0x16, 0x92, 0x3e, 0x1b, 0x35, 0x5f, 0x3c,
  0x99, 0xc4, 0x8b, 0xbe, 0xb3, 0x27, 0xa8, 0x3e, 0xc8, 0x6b, 0x48, 0x3c,
  0x5a, 0x13, 0x9b, 0xbd, 0xc6, 0xef, 0x85, 0x3d, 0x95, 0xa7, 0xab, 0x3e,
  0xaf, 0x92, 0x81, 0x3e, 0xf1, 0x1a, 0x65, 0xbd, 0x58, 0x5a, 0xb0, 0xbd,
  0x04, 0x89, 0x97, 0xbd, 0xf7, 0x7c, 0x18, 0x3e, 0xc8, 0xc5, 0x39, 0xbd,
  0x6e, 0x46, 0x89, 0xbe, 0x08, 0xb3, 0xca, 0x3d, 0x93, 0xf3, 0xc0, 0x3e,
  0x3c, 0x45, 0xa3, 0x3e, 0x6a, 0x8b, 0x7d, 0xbe, 0xc1, 0x45, 0xb5, 0xbe,
  0x6e, 0x45, 0x6a, 0xbe, 0x1f, 0xc8, 0xc7, 0xbe, 0x18, 0x3d, 0x14, 0x3d,
  0xe4, 0x7d, 0xad, 0x3e, 0x66, 0x42, 0xa4, 0xbe, 0xfa, 0x65, 0x94, 0x3e,
  0xa1, 0x14, 0xb9, 0x3e, 0x5c, 0x6e, 0x10, 0xbe, 0x60, 0x47, 0xaf, 0xbe,
  0x19, 0x08, 0xb9, 0x3e, 0x90, 0x30, 0xb6, 0xbd, 0xcc, 0x87, 0x84, 0xbd,
  0x20, 0x28, 0x00, 0xbe, 0x35, 0xb8, 0x99, 0xbe, 0x70, 0x0f, 0xe3, 0x3c,
  0x24, 0xb1, 0x5c, 0xbe, 0xc9, 0xff, 0xbf, 0xbe, 0xe0, 0x87, 0xdb, 0x3c,
  0xec, 0x71, 0x25, 0xbe, 0x00, 0x67, 0x0e, 0x3d, 0x5c, 0xad, 0xc1, 0xbd,
  0x52, 0xc8, 0x0c, 0x3e, 0xe7, 0x62, 0xcf, 0xbe, 0xb8, 0x93, 0x36, 0xbd,
  0x78, 0xba, 0x87, 0xbe, 0xc5, 0x27, 0x91, 0x3e, 0x94, 0x2b, 0x7a, 0xbe,
  0x30, 0xc4, 0xbc, 0x3c, 0xb4, 0xbf, 0xb2, 0xbd, 0x3a, 0xa3, 0x28, 0xbe,
  0xd7, 0xb8, 0xcf, 0xbe, 0x92, 0xbd, 0x17, 0x3e, 0x21, 0xf0, 0x93, 0xbe,
  0xa9, 0xc8, 0x99, 0x3e, 0x72, 0x46, 0xc5, 0xbe, 0x68, 0xd3, 0x3d, 0xbd,
  0x85, 0x87, 0xdc, 0xbe, 0xd6, 0x5d, 0x49, 0xbe, 0x90, 0x44, 0x0d, 0x3d,
  0x4a, 0x2f, 0x8e, 0xbe, 0x3a, 0x1b, 0x71, 0x3e, 0x02, 0x04, 0xa9, 0xbe,
  0x88, 0x46, 0x5d, 0xbe, 0xb0, 0xcd, 0xb9, 0xbd, 0xa1, 0x23, 0xb3, 0x3e,
  0xc6, 0xaf, 0x4a, 0x3e, 0x4c, 0x4b, 0x60, 0xbe, 0x47, 0x8b, 0x8d, 0x3e,
  0x7a, 0x3f, 0x4f, 0xbe, 0x9e, 0xed, 0x97, 0xbe, 0x88, 0xc4, 0x61, 0xbe,
  0xf4, 0x0b, 0x0a, 0xbe, 0xec, 0x0c, 0x92, 0xbd, 0xb6, 0x6f, 0x68, 0xbe,
  0x1a, 0xa3, 0x92, 0xbe, 0x40, 0xa2, 0xa2, 0xbb, 0x90, 0xe8, 0x8a, 0x3e,
  0x36, 0x5c, 0xc6, 0xbe, 0x90, 0x97, 0x3c, 0xbe, 0x1e, 0x37, 0x9b, 0xbd,
  0x61, 0x12, 0xd0, 0xbe, 0xec, 0xf4, 0xa4, 0x3e, 0xce, 0x6c, 0xad, 0x3e,
  0xfe, 0x62, 0x95, 0xbe, 0x4b, 0xc5, 0x47, 0xbe, 0x3a, 0x73, 0x32, 0xbf,
  0x6b, 0xc7, 0xfb, 0xbb, 0x3d, 0x53, 0xb2, 0xbe, 0x4c, 0x57, 0x6b, 0x3e,
  0xab, 0xb1, 0x07, 0x3e, 0xba, 0x02, 0x16, 0x3e, 0x8a, 0x90, 0x6c, 0x3e,
  0x55, 0xdb, 0x9d, 0x3e, 0x12, 0x81, 0xbe, 0xbe, 0x57, 0xf8, 0x92, 0x3e,
  0xb6, 0xb2, 0x9e, 0xbe, 0xe3, 0x40, 0x94, 0xbe, 0x39, 0xb5, 0xb2, 0x3e,
  0x8f, 0x8f, 0x52, 0xbe, 0xc7, 0x43, 0xa0, 0xbe, 0xfb, 0x3f, 0x8a, 0xbe,
  0x22, 0x1f, 0xaa, 0xbe, 0xdc, 0xc2, 0x9c, 0xbd, 0x22, 0x76, 0x82, 0xbe,
  0x8c, 0x00, 0x8b, 0x3d, 0x3e, 0x4a, 0xc4, 0xbe, 0x94, 0x20, 0xaa, 0xbe,
  0x35, 0xe8, 0xda, 0xbe, 0x22, 0xe4, 0x54, 0x3e, 0x88, 0xbb, 0x93, 0xbe,
  0x65, 0x40, 0x89, 0x3e, 0xde, 0x5a, 0x14, 0xbf, 0x00, 0xd2, 0x09, 0x3b,
  0x4d, 0xbb, 0x8c, 0x3e, 0x8b, 0x02, 0x8b, 0xbd, 0x1e, 0xcd, 0x16, 0x3e,
  0x37, 0x11, 0x97, 0x3e, 0xc1, 0xaa, 0x6a, 0x3f, 0xaf, 0x5d, 0x83, 0xbe,
  0x29, 0x2e, 0x9c, 0x3e, 0xd9, 0x0d, 0x81, 0xbe, 0x9b, 0xd1, 0x10, 0x3d,
  0xf2, 0xd9, 0x39, 0x3e, 0x9c, 0x20, 0xf3, 0x3d, 0x6c, 0xec, 0xfe, 0x3d,
  0x5c, 0x68, 0xa5, 0xbd, 0x1a, 0xac, 0x28, 0x3e, 0xb4, 0x50, 0xb4, 0x3e,
  0x30, 0xa1, 0xb4, 0xbc, 0xe4, 0x81, 0xbb, 0xbe, 0xa9, 0x5b, 0x7e, 0x3e,
  0x3e, 0x9c, 0x73, 0x3e, 0xeb, 0x0e, 0xa8, 0xbe, 0x6e, 0x89, 0x85, 0xbe,
  0x60, 0x72, 0xc3, 0xbc, 0x71, 0xc3, 0x02, 0xbf, 0x5b, 0x2e, 0xce, 0xbe,
  0x28, 0xfc, 0xe4, 0xbd, 0xaa, 0x77, 0x2b, 0xbe, 0x7a, 0xd2, 0x35, 0x3e,
  0xcb, 0xf7, 0x4d, 0x3d, 0x0e, 0x48, 0x7a, 0x3e, 0xfa, 0x16, 0x05, 0x3e,
  0x7c, 0xe2, 0x36, 0xbe, 0x20, 0x98, 0x3b, 0x3c, 0x85, 0x10, 0x94, 0x3e,
  0x32, 0xbf, 0x77, 0xbd, 0xcf, 0x92, 0x9f, 0xbe, 0xec, 0x2d, 0xbb, 0x3e,
  0x77, 0x7a, 0x1d, 0x3f, 0x96, 0x69, 0x4f, 0xbe, 0xfb, 0x7d, 0x59, 0xbe,
  0xfe, 0x3e, 0x93, 0xbe, 0x28, 0x44, 0xa7, 0x3e, 0x63, 0x99, 0x95, 0x3e,
  0xb9, 0xcb, 0xd7, 0x3e, 0xd9, 0x41, 0xa4, 0x3e, 0xc4, 0x07, 0xe0, 0x3d,
  0x30, 0xb4, 0xb8, 0xbe, 0xa5, 0xb3, 0x02, 0x3e, 0xe7, 0xae, 0xce, 0x3e,
  0xb2, 0x5e, 0x02, 0xbd, 0x85, 0x5d, 0x72, 0x3e, 0xc5, 0x49, 0xd1, 0x3e,
  0xfd, 0x2f, 0x2d, 0x3c, 0x52, 0xf1, 0xee, 0x3d, 0x5a, 0x81, 0x0d, 0x3e,
  0x0e, 0x3c, 0x09, 0x3e, 0x9b, 0x17, 0x9b, 0xbe, 0x92, 0x0e, 0x6b, 0x3e,
  0xa5, 0x1d, 0xa2, 0x3e, 0x1c, 0x9e, 0xa2, 0xbe, 0x56, 0xff, 0xff, 0xff,
  0x04, 0x00, 0x00, 0x00, 0x40, 0x00, 0x00, 0x00, 0x9e, 0x11, 0x9a, 0x3e,
  0x32, 0x47, 0xed, 0xbe, 0x40, 0x4c, 0xe3, 0xbc, 0x3d, 0xb7, 0x06, 0x3e,
  0xb7, 0xc6, 0x9b, 0xbe, 0xce, 0x4c, 0x03, 0x3f, 0x7f, 0x80, 0xf3, 0x3e,
  0x40, 0x42, 0x75, 0xbd, 0x68, 0xc0, 0x88, 0x3e, 0x70, 0x9d, 0x81, 0x3e,
  0x92, 0xb1, 0xb0, 0x3e, 0xde, 0xc0, 0xeb, 0x3e, 0xa2, 0x38, 0xbf, 0x3e,
  0x23, 0xaf, 0x02, 0x3f, 0xd2, 0x68, 0x61, 0xbe, 0x30, 0xed, 0xf2, 0xbd,
  0xa2, 0xff, 0xff, 0xff, 0x04, 0x00, 0x00, 0x00, 0x40, 0x00, 0x00, 0x00,
  0x73, 0x53, 0xc9, 0xbe, 0x00, 0x00, 0x00, 0x00, 0x00, 0x00, 0x00, 0x00,
  0xae, 0x4c, 0x41, 0x3f, 0x00, 0x00, 0x00, 0x00, 0x64, 0xdc, 0x01, 0xbf,
  0x22, 0x60, 0x49, 0x3e, 0x00, 0x00, 0x00, 0x00, 0xf9, 0x99, 0x6e, 0xbe,
  0x36, 0x73, 0x14, 0xbf, 0x19, 0xec, 0x6c, 0xbe, 0xe2, 0x77, 0x94, 0x3d,
  0xab, 0x1f, 0x3b, 0x3e, 0xe2, 0xfd, 0x51, 0xbe, 0x00, 0x00, 0x00, 0x00,
  0x00, 0x00, 0x00, 0x00, 0xee, 0xff, 0xff, 0xff, 0x04, 0x00, 0x00, 0x00,
  0x04, 0x00, 0x00, 0x00, 0xe8, 0x65, 0xa5, 0xbe, 0x00, 0x00, 0x06, 0x00,
  0x08, 0x00, 0x04, 0x00, 0x06, 0x00, 0x00, 0x00, 0x04, 0x00, 0x00, 0x00,
  0x40, 0x00, 0x00, 0x00, 0x00, 0x00, 0x00, 0x00, 0x32, 0xad, 0xf0, 0x3e,
  0x53, 0xf7, 0x30, 0xbe, 0x00, 0x00, 0x00, 0x00, 0x22, 0x64, 0x0f, 0x3f,
  0x1e, 0x75, 0x96, 0xbe, 0x21, 0xd4, 0x07, 0x3e, 0x00, 0x00, 0x00, 0x00,
  0x00, 0x00, 0x00, 0x00, 0x00, 0x00, 0x00, 0x00, 0xbf, 0xe1, 0x5b, 0x3d,
  0x00, 0x00, 0x00, 0x00, 0xe3, 0x9f, 0x26, 0xbf, 0xa6, 0x20, 0x8d, 0xbd,
  0xe4, 0xc6, 0x0c, 0xbf, 0x0a, 0xcd, 0x9d, 0x3d, 0x20, 0xfb, 0xff, 0xff,
  0x24, 0xfb, 0xff, 0xff, 0x0f, 0x00, 0x00, 0x00, 0x4d, 0x4c, 0x49, 0x52,
  0x20, 0x43, 0x6f, 0x6e, 0x76, 0x65, 0x72, 0x74, 0x65, 0x64, 0x2e, 0x00,
  0x01, 0x00, 0x00, 0x00, 0x14, 0x00, 0x00, 0x00, 0x00, 0x00, 0x0e, 0x00,
  0x18, 0x00, 0x14, 0x00, 0x10, 0x00, 0x0c, 0x00, 0x08, 0x00, 0x04, 0x00,
  0x0e, 0x00, 0x00, 0x00, 0x14, 0x00, 0x00, 0x00, 0x1c, 0x00, 0x00, 0x00,
  0xd8, 0x00, 0x00, 0x00, 0xdc, 0x00, 0x00, 0x00, 0xe0, 0x00, 0x00, 0x00,
  0x04, 0x00, 0x00, 0x00, 0x6d, 0x61, 0x69, 0x6e, 0x00, 0x00, 0x00, 0x00,
  0x03, 0x00, 0x00, 0x00, 0x80, 0x00, 0x00, 0x00, 0x38, 0x00, 0x00, 0x00,
  0x04, 0x00, 0x00, 0x00, 0x9a, 0xff, 0xff, 0xff, 0x10, 0x00, 0x00, 0x00,
  0x00, 0x00, 0x00, 0x08, 0x0c, 0x00, 0x00, 0x00, 0x10, 0x00, 0x00, 0x00,
  0x9c, 0xfb, 0xff, 0xff, 0x01, 0x00, 0x00, 0x00, 0x09, 0x00, 0x00, 0x00,
  0x03, 0x00, 0x00, 0x00, 0x08, 0x00, 0x00, 0x00, 0x06, 0x00, 0x00, 0x00,
  0x02, 0x00, 0x00, 0x00, 0xca, 0xff, 0xff, 0xff, 0x10, 0x00, 0x00, 0x00,
  0x00, 0x00, 0x00, 0x08, 0x10, 0x00, 0x00, 0x00, 0x14, 0x00, 0x00, 0x00,
  0xba, 0xff, 0xff, 0xff, 0x00, 0x00, 0x00, 0x01, 0x01, 0x00, 0x00, 0x00,
  0x08, 0x00, 0x00, 0x00, 0x03, 0x00, 0x00, 0x00, 0x07, 0x00, 0x00, 0x00,
  0x05, 0x00, 0x00, 0x00, 0x01, 0x00, 0x00, 0x00, 0x00, 0x00, 0x0e, 0x00,
  0x16, 0x00, 0x00, 0x00, 0x10, 0x00, 0x0c, 0x00, 0x0b, 0x00, 0x04, 0x00,
  0x0e, 0x00, 0x00, 0x00, 0x18, 0x00, 0x00, 0x00, 0x00, 0x00, 0x00, 0x08,
  0x18, 0x00, 0x00, 0x00, 0x1c, 0x00, 0x00, 0x00, 0x00, 0x00, 0x06, 0x00,
  0x08, 0x00, 0x07, 0x00, 0x06, 0x00, 0x00, 0x00, 0x00, 0x00, 0x00, 0x01,
  0x01, 0x00, 0x00, 0x00, 0x07, 0x00, 0x00, 0x00, 0x03, 0x00, 0x00, 0x00,
  0x00, 0x00, 0x00, 0x00, 0x04, 0x00, 0x00, 0x00, 0x03, 0x00, 0x00, 0x00,
  0x01, 0x00, 0x00, 0x00, 0x09, 0x00, 0x00, 0x00, 0x01, 0x00, 0x00, 0x00,
  0x00, 0x00, 0x00, 0x00, 0x0a, 0x00, 0x00, 0x00, 0x8c, 0x03, 0x00, 0x00,
  0x1c, 0x03, 0x00, 0x00, 0xac, 0x02, 0x00, 0x00, 0x58, 0x02, 0x00, 0x00,
  0x10, 0x02, 0x00, 0x00, 0xc4, 0x01, 0x00, 0x00, 0x78, 0x01, 0x00, 0x00,
  0xf0, 0x00, 0x00, 0x00, 0x60, 0x00, 0x00, 0x00, 0x04, 0x00, 0x00, 0x00,
  0xb2, 0xfc, 0xff, 0xff, 0x00, 0x00, 0x00, 0x01, 0x14, 0x00, 0x00, 0x00,
  0x1c, 0x00, 0x00, 0x00, 0x1c, 0x00, 0x00, 0x00, 0x0a, 0x00, 0x00, 0x00,
  0x34, 0x00, 0x00, 0x00, 0x02, 0x00, 0x00, 0x00, 0xff, 0xff, 0xff, 0xff,
  0x01, 0x00, 0x00, 0x00, 0x9c, 0xfc, 0xff, 0xff, 0x19, 0x00, 0x00, 0x00,
  0x53, 0x74, 0x61, 0x74, 0x65, 0x66, 0x75, 0x6c, 0x50, 0x61, 0x72, 0x74,
  0x69, 0x74, 0x69, 0x6f, 0x6e, 0x65, 0x64, 0x43, 0x61, 0x6c, 0x6c, 0x3a,
  0x30, 0x00, 0x00, 0x00, 0x02, 0x00, 0x00, 0x00, 0x01, 0x00, 0x00, 0x00,
  0x01, 0x00, 0x00, 0x00, 0x0a, 0xfd, 0xff, 0xff, 0x00, 0x00, 0x00, 0x01,
  0x14, 0x00, 0x00, 0x00, 0x1c, 0x00, 0x00, 0x00, 0x1c, 0x00, 0x00, 0x00,
  0x09, 0x00, 0x00, 0x00, 0x68, 0x00, 0x00, 0x00, 0x02, 0x00, 0x00, 0x00,
  0xff, 0xff, 0xff, 0xff, 0x10, 0x00, 0x00, 0x00, 0xf4, 0xfc, 0xff, 0xff,
  0x4c, 0x00, 0x00, 0x00, 0x73, 0x65, 0x71, 0x75, 0x65, 0x6e, 0x74, 0x69,
  0x61, 0x6c, 0x2f, 0x64, 0x65, 0x6e, 0x73, 0x65, 0x5f, 0x31, 0x2f, 0x4d,
  0x61, 0x74, 0x4d, 0x75, 0x6c, 0x3b, 0x73, 0x65, 0x71, 0x75, 0x65, 0x6e,
  0x74, 0x69, 0x61, 0x6c, 0x2f, 0x64, 0x65, 0x6e, 0x73, 0x65, 0x5f, 0x31,
  0x2f, 0x52, 0x65, 0x6c, 0x75, 0x3b, 0x73, 0x65, 0x71, 0x75, 0x65, 0x6e,
  0x74, 0x69, 0x61, 0x6c, 0x2f, 0x64, 0x65, 0x6e, 0x73, 0x65, 0x5f, 0x31,
  0x2f, 0x42, 0x69, 0x61, 0x73, 0x41, 0x64, 0x64, 0x00, 0x00, 0x00, 0x00,
  0x02, 0x00, 0x00, 0x00, 0x01, 0x00, 0x00, 0x00, 0x10, 0x00, 0x00, 0x00,
  0x96, 0xfd, 0xff, 0xff, 0x00, 0x00, 0x00, 0x01, 0x14, 0x00, 0x00, 0x00,
  0x1c, 0x00, 0x00, 0x00, 0x1c, 0x00, 0x00, 0x00, 0x08, 0x00, 0x00, 0x00,
  0x60, 0x00, 0x00, 0x00, 0x02, 0x00, 0x00, 0x00, 0xff, 0xff, 0xff, 0xff,
  0x10, 0x00, 0x00, 0x00, 0x80, 0xfd, 0xff, 0xff, 0x46, 0x00, 0x00, 0x00,
  0x73, 0x65, 0x71, 0x75, 0x65, 0x6e, 0x74, 0x69, 0x61, 0x6c, 0x2f, 0x64,
  0x65, 0x6e, 0x73, 0x65, 0x2f, 0x4d, 0x61, 0x74, 0x4d, 0x75, 0x6c, 0x3b,
  0x73, 0x65, 0x71, 0x75, 0x65, 0x6e, 0x74, 0x69, 0x61, 0x6c, 0x2f, 0x64,
  0x65, 0x6e, 0x73, 0x65, 0x2f, 0x52, 0x65, 0x6c, 0x75, 0x3b, 0x73, 0x65,
  0x71, 0x75, 0x65, 0x6e, 0x74, 0x69, 0x61, 0x6c, 0x2f, 0x64, 0x65, 0x6e,
  0x73, 0x65, 0x2f, 0x42, 0x69, 0x61, 0x73, 0x41, 0x64, 0x64, 0x00, 0x00,
  0x02, 0x00, 0x00, 0x00, 0x01, 0x00, 0x00, 0x00, 0x10, 0x00, 0x00, 0x00,
  0x86, 0xfe, 0xff, 0xff, 0x00, 0x00, 0x00, 0x01, 0x10, 0x00, 0x00, 0x00,
  0x10, 0x00, 0x00, 0x00, 0x07, 0x00, 0x00, 0x00, 0x28, 0x00, 0x00, 0x00,
  0xf4, 0xfd, 0xff, 0xff, 0x19, 0x00, 0x00, 0x00, 0x73, 0x65, 0x71, 0x75,
  0x65, 0x6e, 0x74, 0x69, 0x61, 0x6c, 0x2f, 0x64, 0x65, 0x6e, 0x73, 0x65,
  0x5f, 0x32, 0x2f, 0x4d, 0x61, 0x74, 0x4d, 0x75, 0x6c, 0x00, 0x00, 0x00,
  0x02, 0x00, 0x00, 0x00, 0x01, 0x00, 0x00, 0x00, 0x10, 0x00, 0x00, 0x00,
  0xce, 0xfe, 0xff, 0xff, 0x00, 0x00, 0x00, 0x01, 0x10, 0x00, 0x00, 0x00,
  0x10, 0x00, 0x00, 0x00, 0x06, 0x00, 0x00, 0x00, 0x28, 0x00, 0x00, 0x00,
  0x3c, 0xfe, 0xff, 0xff, 0x19, 0x00, 0x00, 0x00, 0x73, 0x65, 0x71, 0x75,
  0x65, 0x6e, 0x74, 0x69, 0x61, 0x6c, 0x2f, 0x64, 0x65, 0x6e, 0x73, 0x65,
  0x5f, 0x31, 0x2f, 0x4d, 0x61, 0x74, 0x4d, 0x75, 0x6c, 0x00, 0x00, 0x00,
  0x02, 0x00, 0x00, 0x00, 0x10, 0x00, 0x00, 0x00, 0x10, 0x00, 0x00, 0x00,
  0x16, 0xff, 0xff, 0xff, 0x00, 0x00, 0x00, 0x01, 0x10, 0x00, 0x00, 0x00,
  0x10, 0x00, 0x00, 0x00, 0x05, 0x00, 0x00, 0x00, 0x24, 0x00, 0x00, 0x00,
  0x84, 0xfe, 0xff, 0xff, 0x17, 0x00, 0x00, 0x00, 0x73, 0x65, 0x71, 0x75,
  0x65, 0x6e, 0x74, 0x69, 0x61, 0x6c, 0x2f, 0x64, 0x65, 0x6e, 0x73, 0x65,
  0x2f, 0x4d, 0x61, 0x74, 0x4d, 0x75, 0x6c, 0x00, 0x02, 0x00, 0x00, 0x00,
  0x10, 0x00, 0x00, 0x00, 0x01, 0x00, 0x00, 0x00, 0x5a, 0xff, 0xff, 0xff,
  0x00, 0x00, 0x00, 0x01, 0x10, 0x00, 0x00, 0x00, 0x10, 0x00, 0x00, 0x00,
  0x04, 0x00, 0x00, 0x00, 0x34, 0x00, 0x00, 0x00, 0xc8, 0xfe, 0xff, 0xff,
  0x27, 0x00, 0x00, 0x00, 0x73, 0x65, 0x71, 0x75, 0x65, 0x6e, 0x74, 0x69,
  0x61, 0x6c, 0x2f, 0x64, 0x65, 0x6e, 0x73, 0x65, 0x2f, 0x42, 0x69, 0x61,
  0x73, 0x41, 0x64, 0x64, 0x2f, 0x52, 0x65, 0x61, 0x64, 0x56, 0x61, 0x72,
  0x69, 0x61, 0x62, 0x6c, 0x65, 0x4f, 0x70, 0x00, 0x01, 0x00, 0x00, 0x00,
  0x10, 0x00, 0x00, 0x00, 0xaa, 0xff, 0xff, 0xff, 0x00, 0x00, 0x00, 0x01,
  0x10, 0x00, 0x00, 0x00, 0x10, 0x00, 0x00, 0x00, 0x03, 0x00, 0x00, 0x00,
  0x38, 0x00, 0x00, 0x00, 0x18, 0xff, 0xff, 0xff, 0x29, 0x00, 0x00, 0x00,
  0x73, 0x65, 0x71, 0x75, 0x65, 0x6e, 0x74, 0x69, 0x61, 0x6c, 0x2f, 0x64,
  0x65, 0x6e, 0x73, 0x65, 0x5f, 0x32, 0x2f, 0x42, 0x69, 0x61, 0x73, 0x41,
  0x64, 0x64, 0x2f, 0x52, 0x65, 0x61, 0x64, 0x56, 0x61, 0x72, 0x69, 0x61,
  0x62, 0x6c, 0x65, 0x4f, 0x70, 0x00, 0x00, 0x00, 0x01, 0x00, 0x00, 0x00,
  0x01, 0x00, 0x00, 0x00, 0x00, 0x00, 0x16, 0x00, 0x18, 0x00, 0x14, 0x00,
  0x00, 0x00, 0x10, 0x00, 0x0c, 0x00, 0x08, 0x00, 0x00, 0x00, 0x00, 0x00,
  0x00, 0x00, 0x07, 0x00, 0x16, 0x00, 0x00, 0x00, 0x00, 0x00, 0x00, 0x01,
  0x10, 0x00, 0x00, 0x00, 0x10, 0x00, 0x00, 0x00, 0x02, 0x00, 0x00, 0x00,
  0x38, 0x00, 0x00, 0x00, 0x84, 0xff, 0xff, 0xff, 0x29, 0x00, 0x00, 0x00,
  0x73, 0x65, 0x71, 0x75, 0x65, 0x6e, 0x74, 0x69, 0x61, 0x6c, 0x2f, 0x64,
  0x65, 0x6e, 0x73, 0x65, 0x5f, 0x31, 0x2f, 0x42, 0x69, 0x61, 0x73, 0x41,
  0x64, 0x64, 0x2f, 0x52, 0x65, 0x61, 0x64, 0x56, 0x61, 0x72, 0x69, 0x61,
  0x62, 0x6c, 0x65, 0x4f, 0x70, 0x00, 0x00, 0x00, 0x01, 0x00, 0x00, 0x00,
  0x10, 0x00, 0x00, 0x00, 0x00, 0x00, 0x16, 0x00, 0x1c, 0x00, 0x18, 0x00,
  0x00, 0x00, 0x14, 0x00, 0x10, 0x00, 0x0c, 0x00, 0x00, 0x00, 0x00, 0x00,
  0x08, 0x00, 0x07, 0x00, 0x16, 0x00, 0x00, 0x00, 0x00, 0x00, 0x00, 0x01,
  0x14, 0x00, 0x00, 0x00, 0x20, 0x00, 0x00, 0x00, 0x20, 0x00, 0x00, 0x00,
  0x01, 0x00, 0x00, 0x00, 0x3c, 0x00, 0x00, 0x00, 0x02, 0x00, 0x00, 0x00,
  0xff, 0xff, 0xff, 0xff, 0x01, 0x00, 0x00, 0x00, 0x04, 0x00, 0x04, 0x00,
  0x04, 0x00, 0x00, 0x00, 0x1d, 0x00, 0x00, 0x00, 0x73, 0x65, 0x72, 0x76,
  0x69, 0x6e, 0x67, 0x5f, 0x64, 0x65, 0x66, 0x61, 0x75, 0x6c, 0x74, 0x5f,
  0x64, 0x65, 0x6e, 0x73, 0x65, 0x5f, 0x69, 0x6e, 0x70, 0x75, 0x74, 0x3a,
  0x30, 0x00, 0x00, 0x00, 0x02, 0x00, 0x00, 0x00, 0x01, 0x00, 0x00, 0x00,
  0x01, 0x00, 0x00, 0x00, 0x01, 0x00, 0x00, 0x00, 0x10, 0x00, 0x00, 0x00,
  0x0c, 0x00, 0x0c, 0x00, 0x0b, 0x00, 0x00, 0x00, 0x00, 0x00, 0x04, 0x00,
  0x0c, 0x00, 0x00, 0x00, 0x09, 0x00, 0x00, 0x00, 0x00, 0x00, 0x00, 0x09
 
};

#endif //SINE_MODEL_H